04D
7FD
028
7E3
72F
03B
00E
00F
7F9
013
00E
00A
08D
000
162
600
000
00A
00A
7F9
00C
004
7E1
00A
6CE
032
012
010
00D
168
688
7F4
009
006
003
007
201
7ED
00A
000
05E
001
032
7F6
074
00A
019
020
013
014
0A3
7EC
011
7E8
03C
01D
600
013
015
004
201
023
05A
006
00B
201
04C
008
201
00E
043
7FD
008
00E
00B
7F1
7F1
007
7F2
013
013
03B
14A
007
010
737
00A
7F3
02E
003
01A
013
072
7FB
201
024
057
201
013
002
043
025
019
020
201
011
044
055
014
7FF
045
013
08B
005
011
01D
022
6FA
05B
201
04B
00F
009
1E8
013
02F
003
600
7EF
0EC
006
002
042
004
7FC
014
201
03A
201
008
01C
021
600
005
011
00A
077
600
014
000
7F5
01C
04C
01A
013
066
01C
7EB
032
7EE
006
7F4
048
201
600
201
014
007
600
038
015
7F1
015
600
7FF
014
03F
073
6BE
03A
033
7EA
012
010
011
006
027
7FB
00B
007
600
019
033
004
013
600
05F
619
122
047
004
7F6
020
014
00E
1F2
008
000
003
050
003
051
7FC
024
002
016
000
06B
02C
015
00B
013
005
00E
013
03E
027
600
201
043
00B
011
020
01E
00B
065
011
007
07E
046
03B
069
06A
00C
0E2
7F1
7EC
004
00F
063
7F2
201
031
201
017
04A

