05C
015
042
F9D
044
FAB
018
FFD
FAA
021
FF2
04B
024
FE5
035
FFB
FA2
034
038
02F
0C4
032
020
F9B
035
042
04F
00E
030
F83
01B
FF4
086
FAD
036
02F
03E
FB2
F2C
039
FC8
034
08F
FB8
01B
09B
007
022
056
01A
04E
064
FB9
010
F89
018
F64
FDE
FFB
05F
FA5
F28
056
044
06C
00F
039
024
DBD
05A
036
044
017
FF2
008
044
02C
018
FFA
028
FDC
FEB
FEA
02C
013
018
03E
023
00B
05F
011
FFC
F6C
05D
FD4
FA1
03E
05F
F97
06C
011
FDD
034
053
02E
FE4
FD8
01E
FD5
050
009
034
066
FDA
FE8
044
FD5
FF9
064
F76
FD6
06C
038
03F
019
023
04F
FB4
05A
043
051
FA2
FF9
01B
FBA
011
046
004
01E
035
01E
FE1
042
303
056
FD0
FC5
FE6
00D
052
042
017
09E
023
000
022
042
E8E
FED
CB4
FCC
057
FB7
FF2
FD8
03C
000
04F
FEC
00D
FD1
03B
032
01E
FF0
057
018
F80
011
07C
FAD
FCF
FAC
FC6
057
047
F5D
FF1
FCB
079
058
02F
FD6
019
004
00E
022
FD4
039
FB1
FB4
06A
010
016
F84
073
F75
035
051
060
F3B
FEE
017
009
FEF
04B
07C
095
028
029
01C
02F
F8E
FEE
0AF
518
F77
FB3
039
FB8
FF3
060
023
078
00D
034
04C
C7C
03B
041
021
053
06C
065
036
FB9
F9A
FDC
037
047
FCB
03B
03C
014
FBA
046

