0081
0030
005B
1FB9
0062
1FD1
0032
0012
1FEE
0039
0009
0065
003D
1FFB
0052
000F
1FDB
004A
004C
0046
00F7
004F
0034
1FCE
0061
005E
006D
002A
0045
1FAD
0032
0033
00A7
1FD1
0050
004A
0053
1FC4
00FE
0055
1FF4
0050
00B7
1FD2
0032
00B4
002C
003B
006E
002D
0070
0095
1FD5
0034
00F5
0043
0085
0004
0024
007B
1FCB
00AC
0069
0059
0086
0025
004D
0039
0901
0074
0048
006B
0028
0006
002B
005D
003F
002F
0011
003D
0008
0006
000C
003F
002F
002D
005B
003F
0046
0095
002B
000D
1FA4
0075
1FF3
1FB4
005F
007C
1FBE
0087
0108
0040
0048
0070
0044
0006
1FF6
0033
1FEC
007C
0022
004A
007C
1FF9
0008
0061
1FFF
0019
007C
1F9E
0003
0086
0055
0061
0043
0039
0069
1FCC
0077
0057
0063
1FCA
0013
005A
1FD6
002C
005E
0026
0047
0049
003E
00A7
005B
0422
006F
1FF8
0068
0029
0036
006E
0061
0030
00C4
0037
0020
00D1
006B
00F4
0007
012C
0046
006E
1FF2
0019
1FEB
0051
001D
0067
0007
0028
1FEC
004D
0050
0034
000F
006F
0039
1FDA
0032
0094
1FDD
1FEF
1FC7
0010
0074
005C
1F8F
0011
1FE5
008E
0070
0040
001E
0038
0022
0022
003D
1FF0
004D
1FD0
1FD1
0088
0027
0039
0008
008E
1FA2
004B
008E
007A
002E
000C
002B
0027
0004
005D
008F
029E
003F
003E
0035
004F
1FB5
0136
00C8
075C
1F8B
0191
0044
1FF6
000F
007A
0034
00BD
0025
004D
0064
004E
0057
005F
003D
0066
0080
0087
004B
1FD1
1FC3
1FF4
004E
005B
1FF4
005A
0050
0026
0001
005A

