010
03E
03E
FFD
034
03A
020
03F
039
D73
029
052
027
034
050
00E
FDE
034
067
034
FF5
02E
00D
039
FDD
010
025
006
FA5
04D
028
064
024
FF0
027
01F
038
046
05D
03F
FFD
03B
01A
C66
FEC
002
024
025
064
FC2
0A8
DF4
00E
048
043
01F
03B
FD9
ED5
057
026
009
059
051
3C0
039
040
FD8
23A
025
025
04A
02F
FD5
FD9
034
BF5
FED
005
FFC
055
023
058
033
03E
030
00F
035
FCF
030
027
02C
040
00C
043
039
070
017
030
033
FF5
021
075
006
06F
048
03A
032
017
03B
034
FC0
035
FFA
05B
00F
FAA
04D
028
481
02F
054
06E
04F
020
057
03C
076

