FF9
FB4
02C
FD7
020
01C
010
02C
016
B80
020
042
FC1
008
042
FF4
F8A
022
035
FFA
FD9
021
FFF
02C
FD5
FD7
00D
FF9
F80
027
012
052
016
FBC
FEB
002
027
033
020
02B
F98
02C
00B
B80
FC1
FF7
001
013
050
FA4
FFC
BEC
FFC
034
031
00B
02C
FD0
DFB
048
01C
FC2
037
03D
1C1
01B
029
FBA
045
01A
019
02E
01E
FB5
FB8
028
B80
FA9
F8A
FF0
035
FDB
046
026
034
01D
001
020
FC3
026
00C
021
010
FE8
017
026
046
FFE
FE4
026
FDD
004
FF1
FEF
04F
F85
02B
026
002
02A
025
F77
022
F5E
FF3
F9B
F65
03C
FFA
299
021
042
050
038
007
045
02C
032

