002
7B8
01D
7D9
62E
020
7FF
003
7EC
004
7FC
7F6
77E
7ED
7BB
600
7E4
7FB
7F9
7E4
7FF
7EC
7D6
7E9
600
7DB
7F8
7F9
7F1
0BD
600
7CC
7F9
7F3
7F1
7F6
201
7DF
7EB
7EC
7E2
7F1
027
7D9
7E8
7FC
7E2
00B
004
7FB
78A
7DE
7F1
7CF
7D5
7E5
600
7CC
7FA
7B9
600
015
000
7F3
7BD
116
7F3
7EF
201
7FF
7F8
7F1
7F8
7FB
7F8
7DF
7E3
7F1
7AC
7FF
7EA
7E3
0A5
7F3
7F1
618
7C5
7B8
001
7F4
7FC
002
743
7EA
14E
7CB
7E0
1D8
7F9
7F0
7E0
018
00B
00D
199
7EF
7E9
7FD
7CA
7EB
7B8
001
7E5
7F3
7ED
013
7E3
600
7FB
201
7DA
002
7F6
0DB
004
7EB
7F2
600
7CB
68C
7B5
7F6
7EB
7EC
7EC
006
1AC
781
201
7F4
00E
00C
600
7E1
7BD
7F7
7F8
600
003
7E9
7A6
004
7FC
001
002
7F1
00D
7DD
029
7E1
7EF
7E4
7FE
108
600
201
7F4
7B3
600
7FC
006
7DF
005
600
7EF
005
7FE
7F9
600
00B
007
7D9
003
7F6
7FC
7D3
7D0
7F1
7EF
7E9
600
00B
01A
7EF
000
600
7DB
600
0A8
7F2
7F5
7E8
015
7FA
7F2
600
7F6
7F3
7E8
76C
7ED
781
7EE
003
7E7
79C
7F0
7E2
004
006
7E9
001
7F6
7F3
008
7E7
01C
600
201
7E7
7F6
000
009
7ED
7FA
7F2
004
7EE
7EA
7F2
75D
7E4
000
7F1
73F
7D5
7DC
7F5
7F6
7F0
7E6
201
765
1A5
7FE
7DE

