02B
7AF
017
015
003
782
79C
020
7C9
018
036
067
7FA
7FC
7E7
7AA
7CB
7B6
028
06A
7E5
778
798
7E5
026
003
7EB
78E
022
7E1
7B4
060
7D3
010
7DF
7C9
7EA
7C1
786
79D
03A
7F4
041
79B
7D5
017
7E9
7DF
7BF
7ED
7EA
7EF
7A1
02F
03F
009
7DC
796
031
086
7E9
02E
7E0
77F
019
00E
7AD
76F
794
7F7
7CE
7E9
7AE
7A4
7A2
7EA
051
7A0
7C9
7FB
774
024
7DA
00E
01D
7BC
012
059
05B
026
7F1
00C
7CB
7FA
7C4
7AB
7C1
03E
7AB
026
7E2
040
7EA
026
01C
7B2
7BD
7D2
02C
79B
7E7
7FC
7B6
029
01E
023
082
057
7BF
7AE
78D
7B3
092
7E2
03B
775
790
027
7CF
7D3
7E5
7CA
017
033
7CD
7E3
7FD
7C6
7C8
02B
7B7
02F
7D9
068
7C5
03F
7D0
7A4
7F2
7D7
7EA
7EC
7FF
773
013
7AA
7E6
027
7B7
7C8
065
7C5
753
7DD
7AD
508
023
053
7F9
7D9
045
799
025
7C1
7A8
78B
7CF
7BB
7EC
7B2
016
7EC
082
01C
77B
786
7F1
754
015
011
776
7D0
7D3
7A4
7C7
7CF
79B
02F
786
02E
7C7
00F
008
032
047
7E5
021
015
0A9
7E1
773
7A5
039
028
7FA
036
7F9
04B
7AF
01B
008
7DA
7DD
793
7A3
7EB
7BC
7F4
7ED
04C
75B
7BC
7CC
7F2
7DF
025
004
033
768
7BD
04C
7D4
028
7D7
7F5
027
04E
7E7
7E8
797
05B
7C7
047
7F0
029
7D8

