7FE
018
047
7DD
7EC
028
06A
00D
056
7CA
7A6
08A
039
7B1
086
02B
79E
7D3
780
022
053
031
006
033
036
7E3
035
7BE
0A3
072
7F8
039
023
7D3
041
02B
023
795
0AC
01C
074
030
02D
044
030
034
05A
02C
020
021
053
005
013
02E
03B
7E0
027
453
06B
02A
010
064
017
7E4
05E
797
001
050
027
7D9
080
04A
04F
056
016
7A0
030
047
048
7AC
7EA
027
01F
103
03B
00B
094
050
05C
7FF
03D
05E
00C
7AA
091
036
724
041
7C9
079
071
013
791
7F4
068
088
05F
085
023
00A
6D5
063
07E
7CE
790
066
062
7C7
045
003
05A
05F
02D
02C
049
716
08A
06F

