1B8
1E6
090
017
033
05E
02F
02D
160
04F
06B
149
02D
1FA
047
05F
048
1C8
138
030
031
1E0
068
03C
03A
1E1
05F
15C
04C
016
18F
062
048
169
061
196
1F3
02C
08D
03C
027
010
019
1DC
006
1FB
031
040
036
13C
066
004
035
00F
1CF
01E
1F1
022
041
054
1F6
1E0
013
04C
077
05C
031
082
071
13E
1D0
033
03E
1E5
1E7
04F
057
078
1BE
036
050
03A
1B8
060
118
178
05C
037
07F
173
04C
041
07D
1F6
1DB
068
1F5
1CD
013
01C
00D
039
06F
172
197
025
1FA
047
01B
027
065
198
01D
1FF
1FE
065
041
073
06F
02E
1C5
012
067
1D0
089
053
031
057

