040
033
077
007
01D
045
091
03E
07C
7F5
7CD
0AE
05D
0CD
0AD
047
7D2
008
7B3
046
080
059
042
052
05F
024
056
004
0DE
09C
033
05F
051
008
06B
054
054
7BF
0D1
04F
095
065
05A
073
053
057
089
04F
049
047
080
026
065
064
060
010
048
272
087
054
032
088
049
00D
089
071
028
070
048
008
09E
06F
079
085
048
7DD
050
065
081
7E0
021
04B
058
17C
057
039
0B9
087
088
029
065
08F
035
7E0
0B2
05B
75F
077
7FE
09E
096
046
7BC
01A
092
0A1
07E
0C9
04B
033
6FB
095
0B6
005
7C6
088
084
7F8
06B
024
08E
086
060
073
084
754
0B0
08F

