3E3
020
0B4
064
087
092
04B
04F
38C
071
08C
389
06B
026
06D
088
084
03A
378
057
06B
008
08F
068
065
014
08A
3A8
07C
050
3C3
08C
06C
3BC
097
3CB
029
051
0AC
05F
061
035
03D
006
02A
02C
051
067
05B
0E3
090
031
04F
041
002
040
021
052
068
084
023
018
036
076
0AF
088
063
0AA
09D
370
003
05B
07B
01E
009
071
087
0A9
3EC
05A
088
07E
3E7
094
36B
18D
086
074
0A1
3B1
06C
060
0D8
02C
00A
08C
03A
003
041
051
038
065
0A2
3AF
3D2
045
050
07A
03F
044
08A
3D2
04C
029
02D
099
05C
096
08E
05E
3F2
043
090
11D
0B7
07C
054
07E

