052
08D
020
0F5
05D
04C
01C
074
029
0A9
081
079
025
0A9
023
05D
041
02B
06B
03D
08C
041
056
04D
060
074
069
038
04B
03E
052
012
018
09E
02A
047
02F
02D
04B
05E
015
044
063
03C
033
05D
028
05E
05D
092
02A
063
065
07A
053
08B
014
08D
019
054
041
7F8
0BC
08B
019
04D
082
055
07D
022
046
056
004
027
033
056
033
072
03D
020
048
093
028
023
041
072
07B
028
06B
0CC
022
058
03E
04F
005
03A
04F
073
069
04F
05D
0C9
093
08D
038
01A
03F
028
01D
03D
002
044
0A6
03C
046
01A
039
01A
03F
065
066
033
040
076
039
047
055
045
062
034
04E
35C
079
046
0A6
062
071
01E
04D
049
015
07C
06D
030
050
07B
033
04D
02F
025
063
04A
047
06D
047
030
058
058
02A
052
043
03F
04A
076
03D
054
05D
016
005
017
06D
050
001
06D
07D
073
070
7FC
004
072
00A
069
043
032
7FE
054
074
020
055
03B
001
040
07C
0A7
071
03D
032
7FD
0A2
042
016
05E
048
09B
083
027
024
05D
023
002
033
037
06A
00D
043
09B
01F
049
03C
05C
071
083
041
02D
047
024
08E
08D
060
04B
083
7DC
044
07A
0A8
042
058
0BC
05E
09D
070
07D
0A6
05B
03F
087
06A
06C
064
024
052
058
0A4
03C
084
072

