076
0C4
03E
11A
07A
069
045
0A3
050
0D3
0A8
0A6
049
0D2
05D
07C
069
061
08A
067
0B8
088
07D
06F
083
091
098
063
071
060
080
03C
03C
0C0
05D
06F
05C
054
069
07F
03D
077
086
067
05A
081
04B
07D
08E
0B4
04A
07E
091
0A6
077
0B9
03C
0B2
051
075
062
01F
0E2
0AD
03E
072
0BB
080
097
05B
073
085
028
043
064
07A
068
099
06B
055
074
0B2
04B
04F
059
089
099
054
090
0F0
03D
082
063
075
043
05F
070
096
095
076
083
0E4
0B7
0AF
067
041
061
053
04F
08A
022
076
0C9
055
068
043
061
037
05C
08C
092
058
071
096
092
069
076
06C
097
069
07E
247
09A
070
0D1
09D
09A
047
06C
068
044
09C
093
04F
079
099
05F
072
060
04A
083
070
071
094
073
059
076
082
04E
074
06C
063
071
09D
05F
079
081
047
058
044
0A9
070
031
088
0AD
094
09D
020
03B
098
032
08D
067
05C
023
076
091
052
084
061
03F
06D
09A
0C3
09A
05E
04F
035
0D2
073
03D
081
06F
0BE
0AE
053
047
08C
05C
02C
05D
058
089
03D
06C
0BE
04A
06A
063
087
093
0A6
059
059
064
053
0BB
0B5
08D
075
0A3
003
068
0A0
0CF
072
07D
0E4
079
0D4
09A
09F
0C6
07C
075
0B4
09A
0A7
086
053
07B
080
0CB
067
0A5
093

