224
1DB
20F
214
212
1CD
1D5
21F
1F0
20D
228
235
208
1F5
1F4
1DC
1E4
1F0
21B
248
202
1C7
1D8
1EE
21F
202
201
1D0
21A
1FC
1E4
237
1F6
20D
1F9
1FD
200
1E5
1C5
1D7
226
1F5
233
1C8
1F6
217
1F7
1F6
1F1
1FF
1FA
203
1E2
214
213
20F
1E9
1CD
229
259
1F9
223
1F0
1CE
213
20C
1E0
1C5
1CC
20C
1EE
207
1D4
1DB
1DF
1FE
239
1D8
1EC
20E
1C1
212
1F1
213
21B
1DC
208
233
22E
21D
200
20F
1E5
204
1E4
1DD
1EA
238
1DD
21D
1EB
223
1F6
20E
222
1E4
1ED
1F3
221
1D9
1F3
200
1F1
21B
220
216
24D
22F
1F1
1DA
1C2
1EB
25A
1FE
227
1D2
1CB
224
1F6
1F3
1F7
1EE
21C
21F
1E9
202
209
1E4
1FD
215
1E1
21F
1F4
234
1F1
224
1F5
1D8
202
1F6
1FC
200
205
1C4
214
1DF
1F4
222
1F5
1E9
244
1E7
1A2
210
1E2
1F2
21B
236
204
1F9
229
1D3
219
1E3
1DB
1C5
1F1
1E0
1F7
1DA
21A
1FC
243
211
1C6
1CC
20A
1BC
204
214
1C4
1F9
1ED
1DB
1F5
1EF
1CD
222
1C6
220
1ED
20A
214
225
228
1FA
215
217
260
1F3
1C1
1D9
22A
211
202
21E
204
236
1DE
214
207
1F7
1FA
1CA
1D5
1FE
1E3
200
1FF
232
1BD
1F1
1EB
209
1F5
222
218
21B
1BD
1E4
230
1FA
216
1FC
209
217
22E
1FE
208
1CE
22A
1EC
223
205
219
1FB

