066
093
091
06A
000
097
07F
083
079
085
083
081
07A
07D
096
000
07A
084
07E
078
083
07E
06E
076
000
08E
082
085
080
101
000
06D
080
082
07A
083
101
075
07A
07C
0EE
07D
091
070
04D
082
07E
088
083
07F
091
071
083
070
078
083
000
080
082
05D
092
08E
092
07B
08C
101
05F
083
101
085
093
07E
081
082
082
075
072
07E
0DF
083
07F
082
101
080
07F
000
067
099
08E
07F
085
086
078
07B
101
07F
05E
101
082
07F
09D
089
088
085
101
082
089
078
07E
079
074
084
06E
081
07F
090
082
000
096
101
08C
080
07F
101
085
02C
07A
000
070
06C
05E
082
092
07B
07B
089
101
08E
101
07F
08B
08A
000
079
092
083
091
000
088
079
0AC
083
09C
089
083
06C
089
07A
097
071
080
075
0DB
101
000
101
082
063
000
08B
086
079
082
000
07C
087
0A0
09A
000
092
08F
072
085
081
083
07A
088
07B
07E
07D
000
089
090
07E
083
000
078
000
0FA
08F
07B
078
08C
081
07F
028
083
07B
07B
09C
07C
0A8
07B
084
07D
098
07A
0A7
090
088
07A
084
07C
084
087
093
091
000
101
089
083
086
087
082
081
068
08B
07E
079
066
097
070
076
082
07B
074
077
081
087
080
074
101
06B
101
084
072

