493
495
4C4
480
47B
4A0
4BB
49F
4B5
46F
46A
4D9
4A7
901
4DC
4AF
459
471
451
4A6
4BF
48F
498
4A6
4B4
478
4AE
472
4F0
4D8
498
4B0
490
480
4A5
480
49A
455
4DC
4A6
4B7
4BB
497
4A8
4A7
4AB
4A2
49E
49A
49C
4BF
496
4AB
4AC
4A5
478
493
3F1
4C9
492
48F
4C7
492
486
4C7
485
488
4B2
4A6
474
4B4
4BD
4B5
4BB
48E
462
4A4
4B7
4B4
46E
479
4AB
4A1
51B
4AB
49E
4D8
4BB
4D9
47D
4AF
4C6
490
46C
4D5
4A9
427
49D
46C
4CD
4BA
490
465
483
4C7
4C6
4BF
4DD
4B4
494
3E9
4C1
4C8
475
450
4BE
4B7
474
4A8
495
4BB
4B1
4BC
4C1
4A8
413
4DC
4CC

