465
486
4BD
485
4A1
4B3
4A2
49E
437
4B5
4D0
433
4A2
481
4A3
4C5
4B3
47F
422
4A4
4A8
48A
4C7
4AA
4B2
48C
4B9
43F
4B1
497
457
4AD
4AF
455
4BE
45F
486
4AA
4CA
4A9
49D
49D
49B
466
49E
489
49D
4B3
4B1
44F
4C3
47F
4AE
48F
47C
490
482
495
4BD
4B7
48A
47E
491
4AD
4C5
4CB
4BB
4D0
4BC
42F
460
4A2
4BB
483
482
4B2
49A
4CC
46D
4A6
4BA
4B0
464
4C6
415
4C1
4C8
4AF
4B8
446
4AA
4B5
4C4
48A
471
4BE
488
478
49C
4AB
491
4A1
4C3
43F
465
49A
49E
4B1
494
4A6
4B9
455
4AA
48D
48F
4C8
4A1
4C9
4C1
4A8
478
49F
4C4
4F6
4CC
4BC
4A7
4BB

