4AF
4D8
49B
511
4C6
4B3
49A
4C6
4A2
4DF
4D3
4D0
49F
4D7
49B
4B5
4A6
4BA
4C1
4AE
4D8
4BD
4B7
4BB
4D4
4C9
4CD
4B0
4AD
4AF
4A5
4A3
49A
4D8
4B7
4AF
4B2
4AA
4B8
4B8
48D
4AD
4B5
4B0
4A2
4B1
49E
4CF
4B3
4D8
4AA
4BF
4B1
4D3
4B9
4CA
49E
4D9
491
4B6
4B0
48E
4E4
4D7
49A
4B6
4C3
4B2
4C9
49E
4A4
4B7
490
49B
4B5
4BF
4A6
4C4
4B9
4A4
4B4
4DA
49C
4A2
4B0
4CB
4C8
4A9
4C6
4FC
4A3
4BF
4A9
4B2
498
4A8
4B1
4C6
4BF
4BD
4B5
4FB
4E2
4CD
4A3
49D
4A6
4A5
4AA
4BF
498
4B8
4E4
4A4
4B0
49C
4BC
494
4AB
4C5
4C6
4A9
4A2
4C8
4A5
4A9
4B0
4AE
4BF
4B3
4BA
71A
4CF
4B0
4E9
4C1
4C9
49E
4B9
4B0
49E
4D9
4C4
4A4
4C0
4C9
4AA
4B9
4BB
49E
4C3
4B6
4A7
4C4
4AA
4AD
4BC
4B4
49F
4B6
4BF
4B6
4B5
4C5
49F
4B3
4C1
4B1
4A6
49A
4CB
4B1
493
4C1
4C7
4C9
4C3
490
496
4C5
492
4C7
4BE
4A8
490
4B9
4CA
49C
4AB
4B1
48C
4B4
4CD
4DD
4CB
4B0
4AA
49C
4DE
4AC
496
4B7
4A9
4DA
4CD
49B
4AD
4AF
4A9
496
4A7
4AE
4C3
494
4A9
4DD
49E
4A9
4B0
4B9
4C8
4D7
4B1
4B6
4B7
4A2
4DD
4D5
4B4
4B6
4CD
479
4B1
4D4
4E1
4BD
4BB
4F5
4B6
4D5
4C7
4C5
4E8
4BA
4AE
4CF
4C6
4BE
4B6
4B4
4B9
4B7
4DE
4B0
4CE
4C5

