03B
FEF
01E
03C
03A
008
02C
008
01A
011
02A
024
FF5
00C
FF0
FF0
009
B80
FEA
FEA
037
008
02E
00A
004
02D
022
FEE
FF8
B80
01C
00A
011
015
006
001
FF2
FD5
01A
FFD
018
021
002
02D
042
012
FE2
00F
FFA
04E
034
008
FF3
048
01A
B80
FF7
032
00C
020
FCF
03D
FFD
006

