04C
01A
030
04B
04E
037
04E
01B
032
047
039
036
014
02B
00D
028
021
B80
02C
023
047
02F
03D
01C
030
046
038
006
05A
CEC
032
01E
02F
023
021
042
015
FF8
037
013
025
039
020
03A
052
02C
FFA
020
011
068
046
049
014
058
038
B80
00F
056
036
031
FF7
058
021
026

