04B
FCA
03A
03E
01F
FA9
FB3
05E
FEC
03A
055
089
01C
018
001
FCF
FF5
FF2
055
089
006
FA1
FAD
FFF
046
022
00B
FAE
048
00D
FD1
087
FF8
036
000
FF8
00B
FEA
F9A
FBB
05B
011
064
FB1
FF1
057
00C
000
FD6
00F
008
011
FCF
051
059
035
FF9
FB4
04F
0A5
012
04E
FF8
FA3
038
030
FD0
F98
FB3
01C
FF0
00C
FCE
FBF
FC5
018
06F
FBE
FE9
01D
F95
040
FFA
02E
044
FD4
03A
07F
07A
04A
012
03F
FF3
01B
FDE
FCC
FF0
05C
FCB
044
005
05C
00B
045
03F
FCB
FD8
FF6
049
FBC
FFE
015
FDB
047
03E
03E
098
071
FF2
FCC
FAB
FD1
0B1
003
057
F9A
FB8
05D
FF2
FF1
005
FE8
040
053
FEA
005
02B
FE9
FE8
047
FD9
04D
FF6
088
FE8
05A
FF8
FC5
019
003
008
017
02A
FA2
03B
FD4
004
04D
FDC
FEE
08D
FDF
F74
00D
FD7
559
046
072
00F
FF3
06C
FBD
040
FE3
FC8
F9E
FEB
FD7
00A
FCF
037
01E
0A4
038
FA7
FAC
020
F76
039
033
F96
FEF
FF2
FC3
FE3
FEF
FBD
05F
FA3
04E
FEE
02E
03B
054
063
007
049
036
0C1
FFB
F8C
FCA
05F
044
01B
059
026
063
FCC
033
027
FF9
000
FB1
FBC
00F
FDA
014
016
07F
F76
FE1
FF3
01D
010
041
027
05D
F8C
FD4
06D
FF6
04A
FFA
012
042
070
001
00E
FBD
072
FE7
063
00F
047
FF2

