20B
23D
25B
246
262
217
254
25C
250
26B
227
24F
27C
255
273
272
254
27D
263
25B
261
263
24C
21D
277
279
261
25C
26A
203
26F
22A
214
253
262
42B
239
256
229
201
236
273
269
27D
287
239
23A
25D
257
21A
24E
25B
246
26E
264
300
28A
27D
263
276
274
22E
267
26F

