279
26E
226
25C
21B
2B3
262
271
292
26C
232
24C
26B
227
26B
212
284
481
24D
259
249
259
24D
1F4
26C
192
254
233
283
232
239
264
275
243
26F
256
270
255
2A3
270
240
231
245
266
255
220
274
21D
24A
25E
227
21F
266
25A
273
25B
299
251
251
26B
263
266
259
26C

