270
254
249
263
269
261
274
255
265
202
299
257
26C
263
247
280
25B
268
25C
253
237
26A
263
234
21B
267
234
249
237
281
274
26D
26E
234
259
269
253
265
24C
23F
21C
259
235
243
250
224
202
27C
24E
273
24B
203
298
245
255
218
1FF
241
259
261
27F
21E
228
231

