25C
216
258
23E
26B
262
267
205
223
218
25F
2A3
255
24F
246
239
24C
26E
23A
25F
24E
25B
27D
273
26C
241
23B
28D
240
240
281
25C
275
264
258
280
237
26C
25A
27C
272
268
255
258
215
238
275
290
25A
231
27C
283
276
244
2D5
270
481
230
2A6
1FB
276
21E
25E
253

