05C
042
044
018
7AA
7F2
024
035
7A2
038
0C4
020
035
04F
030
01B
086
036
03E
72C
7C8
08F
01B
007
056
04E
7B9
789
764
7FB
7A5
056
06C
039
5BD
036
017
008
02C
7FA
7DC
7EA
013
03E
00B
011
76C
7D4
03E
797
011
034
02E
7D8
7D5
009
066
7E8
7D5
064
7D6
038
019
04F
05A
051
7F9
7BA
046
01E
01E
042
056
7C5
00D
042
09E
000
042
7ED
7CC
7B7
7D8
000
7EC
7D1
032
7F0
018
011
7AD
7AC
057
75D
7CB
058
7D6
004
022
039
7B4
010
784
775
051
73B
017
7EF
07C
028
01C
78E
0AF
777
039
7F3
023
00D
04C
03B
021
06C
036
79A
037
7CB
03C
7BA

