030
FB9
FD1
012
039
065
FFB
00F
04A
046
04F
FCE
05E
02A
FAD
033
FD1
04A
FC4
055
050
FD2
0B4
03B
02D
095
034
043
004
07B
0AC
059
025
039
074
06B
006
05D
02F
03D
006
03F
02D
03F
095
00D
075
FB4
07C
087
040
070
006
033
07C
04A
FF9
061
019
F9E
086
061
039
FCC
057
FCA
05A
02C
026
049
0A7
422
FF8
029
06E
030
037
0D1
0F4
12C
06E
019
051
067
028
04D
034
06F
FDA
094
FEF
010
05C
011
08E
040
038
022
FF0
FD0
088
039
08E
04B
07A
00C
027
05D
29E
03E
04F
136
75C
191
FF6
07A
0BD
04D
04E
05F
066
087
FD1
FF4
05B
05A
026
05A

