015
F9D
FAB
FFD
021
04B
FE5
FFB
034
02F
032
F9B
042
00E
F83
FF4
FAD
02F
FB2
039
034
FB8
09B
022
01A
064
010
018
FDE
05F
F28
044
00F
024
05A
044
FF2
044
018
028
FEB
02C
018
023
05F
FFC
05D
FA1
05F
06C
FDD
053
FE4
01E
050
034
FDA
044
FF9
F76
06C
03F
023
FB4
043
FA2
01B
011
004
035
FE1
303
FD0
FE6
052
017
023
022
E8E
CB4
057
FF2
03C
04F
00D
03B
01E
057
F80
07C
FCF
FC6
047
FF1
079
02F
019
00E
FD4
FB1
06A
016
073
035
060
FEE
009
04B
095
029
02F
FEE
518
FB3
FB8
060
078
034
C7C
041
053
065
FB9
FDC
047
03B
014
046

