0081
005B
0062
0032
1FEE
0009
003D
0052
1FDB
004C
00F7
0034
0061
006D
0045
0032
00A7
0050
0053
00FE
1FF4
00B7
0032
002C
006E
0070
1FD5
00F5
0085
0024
1FCB
0069
0086
004D
0901
0048
0028
002B
003F
0011
0008
000C
002F
005B
0046
002B
1FA4
1FF3
005F
1FBE
0108
0048
0044
1FF6
1FEC
0022
007C
0008
1FFF
007C
0003
0055
0043
0069
0077
0063
0013
1FD6
005E
0047
003E
005B
006F
0068
0036
0061
00C4
0020
006B
0007
0046
1FF2
1FEB
001D
0007
1FEC
0050
000F
0039
0032
1FDD
1FC7
0074
1F8F
1FE5
0070
001E
0022
003D
004D
1FD1
0027
0008
1FA2
008E
002E
002B
0004
008F
003F
0035
1FB5
00C8
1F8B
0044
000F
0034
0025
0064
0057
003D
0080
004B
1FC3
004E
1FF4
0050
0001

