040
7E3
033
020
077
0B4
007
064
01D
087
045
092
091
04B
03E
04F
07C
78C
7F5
071
7CD
08C
0AE
789
05D
06B
0CD
026
0AD
06D
047
088
7D2
084
008
03A
7B3
778
046
057
080
06B
059
008
042
08F
052
068
05F
065
024
014
056
08A
004
7A8
0DE
07C
09C
050
033
7C3
05F
08C
051
06C
008
7BC
06B
097
054
7CB
054
029
7BF
051
0D1
0AC
04F
05F
095
061
065
035
05A
03D
073
006
053
02A
057
02C
089
051
04F
067
049
05B
047
0E3
080
090
026
031
065
04F
064
041
060
002
010
040
048
021
272
052
087
068
054
084
032
023
088
018
049
036
00D
076
089
0AF
071
088
028
063
070
0AA
048
09D
008
770
09E
003
06F
05B
079
07B
085
01E
048
009
7DD
071
050
087
065
0A9
081
7EC
7E0
05A
021
088
04B
07E
058
7E7
17C
094
057
76B
039
18D
0B9
086
087
074
088
0A1
029
7B1
065
06C
08F
060
035
0D8
7E0
02C
0B2
00A
05B
08C
75F
03A
077
003
7FE
041
09E
051
096
038
046
065
7BC
0A2
01A
7AF
092
7D2
0A1
045
07E
050
0C9
07A
04B
03F
033
044
6FB
08A
095
7D2
0B6
04C
005
029
7C6
02D
088
099
084
05C
7F8
096
06B
08E
024
05E
08E
7F2
086
043
060
090
073
11D
084
0B7
754
07C
0B0
054
08F
07E

