7FE
7B8
018
7E6
047
090
7DD
017
7EC
033
028
05E
06A
02F
00D
02D
056
760
7CA
04F
7A6
06B
08A
749
039
02D
7B1
7FA
086
047
02B
05F
79E
048
7D3
7C8
780
738
022
030
053
031
031
7E0
006
068
033
03C
036
03A
7E3
7E1
035
05F
7BE
75C
0A3
04C
072
016
7F8
78F
039
062
023
048
7D3
769
041
061
02B
796
023
7F3
795
02C
0AC
08D
01C
03C
074
027
030
010
02D
019
044
7DC
030
006
034
7FB
05A
031
02C
040
020
036
021
73C
053
066
005
004
013
035
02E
00F
03B
7CF
7E0
01E
027
7F1
453
022
06B
041
02A
054
010
7F6
064
7E0
017
013
7E4
04C
05E
077
797
05C
001
031
050
082
027
071
7D9
73E
080
7D0
04A
033
04F
03E
056
7E5
016
7E7
7A0
04F
030
057
047
078
048
7BE
7AC
036
7EA
050
027
03A
01F
7B8
103
060
03B
718
00B
778
094
05C
050
037
05C
07F
7FF
773
03D
04C
05E
041
00C
07D
7AA
7F6
091
7DB
036
068
724
7F5
041
7CD
7C9
013
079
01C
071
00D
013
039
791
06F
7F4
772
068
797
088
025
05F
7FA
085
047
023
01B
00A
027
6D5
065
063
798
07E
01D
7CE
7FF
790
7FE
066
065
062
041
7C7
073
045
06F
003
02E
05A
7C5
05F
012
02D
067
02C
7D0
049
089
716
053
08A
031
06F
057

