1FEB
0019
1FAC
0025
0064
0022
005C
1FCF
000A
000F
0014
1FEB
003E
1FE5
0022
004C
1F81
1FD6
0004
1FFE
000C
1F71
1FDC
0030
0035
1FEB
1F54
0048
1FFF
1FD2
1FAF
0019
1F79
0023
1EDF
053A
002C
0010
003C
0043
0031
0092
0003
0023
1F3B
1FB9
1FFF
0039
005A
1FEC
1FD6
0006
0026
0007
1F21
001B
1FF6
0069
0042
1FBC
1FC4
1FE4
1FEE
1FF3
1FDC
1FF4
009F
1FF4
1FEE
0008
1F75
1FD9
0021
1FC6
0028
0060
0013
001B
0011
004A
0017
1F6D
1FA5
0022
0048
1FDE
0007
0005
1F45
0024
1FDA
1700
003A
003D
1FFC
004A
000C
1A9D
0080
1FE7
1FE9
1F9F
1FE5
1700
1FAD
0043
000B
1F8A
000E
1FE4
1F43
001F
0037
1FF6
0045
1FAC
1FF6
004E
0035
1FEC
1F95
0026
1FBA
1FFC
1FC5
005A
0052
0046

