0006
0034
1FE6
003E
0081
0044
0072
1FFE
0022
0033
003B
001D
0054
0004
003D
0063
1FC1
0032
001D
001F
0022
0002
002E
0045
004E
0013
1F7B
0060
0016
1FF5
1FC7
002F
1FAD
003B
1F57
0901
0040
0019
005A
0059
004C
0295
008B
004B
00A5
1FE4
0025
005C
0079
1FF7
1FF8
0032
0050
0029
1F4A
0046
0021
0080
0067
1FFC
02A8
0010
000E
0015
0011
0017
00CA
001E
000E
0021
00C0
00EA
0039
1FE2
004B
0072
0025
003D
0024
005F
0036
0074
1FC4
0036
006E
1FFF
0024
0025
1F7A
003D
1FF8
1B5A
0059
0057
0021
005E
0024
1CD8
0098
000C
000F
1FD2
0006
1700
1FD9
005F
0042
001A
002E
000E
0129
0029
006D
0022
005B
1FF5
000B
0069
004E
0017
1FAC
0041
1FF1
000F
1FED
0073
0067
005E

